{
    "activation_encodings": {
        "base_upsampler.net": {
            "input": {
                "0": {
                    "bitwidth": 8,
                    "dtype": "int",
                    "is_symmetric": "False",
                    "max": 1.0,
                    "min": 0.0,
                    "offset": 0,
                    "scale": 0.003921568859368563
                }
            },
            "output": {
                "0": {
                    "bitwidth": 8,
                    "dtype": "int",
                    "is_symmetric": "False",
                    "max": 0.9981181025505066,
                    "min": 0.0,
                    "offset": 0,
                    "scale": 0.003914188593626022
                }
            }
        },
        "body.0.act": {
            "output": {
                "0": {
                    "bitwidth": 8,
                    "dtype": "int",
                    "is_symmetric": "False",
                    "max": 1.0,
                    "min": 0.0,
                    "offset": 0,
                    "scale": 0.003921568859368563
                }
            }
        },
        "body.0.branch_3x3": {
            "output": {
                "0": {
                    "bitwidth": 8,
                    "dtype": "int",
                    "is_symmetric": "False",
                    "max": 1.0892091989517212,
                    "min": -1.2645903825759888,
                    "offset": -137,
                    "scale": 0.00923058670014143
                }
            }
        },
        "body.1.act": {
            "output": {
                "0": {
                    "bitwidth": 8,
                    "dtype": "int",
                    "is_symmetric": "False",
                    "max": 1.0,
                    "min": 0.0,
                    "offset": 0,
                    "scale": 0.003921568859368563
                }
            }
        },
        "body.1.branch_3x3": {
            "output": {
                "0": {
                    "bitwidth": 8,
                    "dtype": "int",
                    "is_symmetric": "False",
                    "max": 1.3056912422180176,
                    "min": -0.9439795017242432,
                    "offset": -107,
                    "scale": 0.008822238072752953
                }
            }
        },
        "body.2.act": {
            "output": {
                "0": {
                    "bitwidth": 8,
                    "dtype": "int",
                    "is_symmetric": "False",
                    "max": 1.0,
                    "min": 0.0,
                    "offset": 0,
                    "scale": 0.003921568859368563
                }
            }
        },
        "body.2.branch_3x3": {
            "output": {
                "0": {
                    "bitwidth": 8,
                    "dtype": "int",
                    "is_symmetric": "False",
                    "max": 2.0135140419006348,
                    "min": -0.7175821661949158,
                    "offset": -67,
                    "scale": 0.010710181668400764
                }
            }
        },
        "body.3.act": {
            "output": {
                "0": {
                    "bitwidth": 8,
                    "dtype": "int",
                    "is_symmetric": "False",
                    "max": 1.0,
                    "min": 0.0,
                    "offset": 0,
                    "scale": 0.003921568859368563
                }
            }
        },
        "body.3.branch_3x3": {
            "output": {
                "0": {
                    "bitwidth": 8,
                    "dtype": "int",
                    "is_symmetric": "False",
                    "max": 2.3502602577209473,
                    "min": -1.0549463033676147,
                    "offset": -79,
                    "scale": 0.013353751040995121
                }
            }
        },
        "body.4.act": {
            "output": {
                "0": {
                    "bitwidth": 8,
                    "dtype": "int",
                    "is_symmetric": "False",
                    "max": 1.0,
                    "min": 0.0,
                    "offset": 0,
                    "scale": 0.003921568859368563
                }
            }
        },
        "body.4.branch_3x3": {
            "output": {
                "0": {
                    "bitwidth": 8,
                    "dtype": "int",
                    "is_symmetric": "False",
                    "max": 2.328986406326294,
                    "min": -0.6256978511810303,
                    "offset": -54,
                    "scale": 0.011586996726691723
                }
            }
        },
        "body.5.act": {
            "output": {
                "0": {
                    "bitwidth": 8,
                    "dtype": "int",
                    "is_symmetric": "False",
                    "max": 1.0,
                    "min": 0.0,
                    "offset": 0,
                    "scale": 0.003921568859368563
                }
            }
        },
        "body.5.branch_3x3": {
            "output": {
                "0": {
                    "bitwidth": 8,
                    "dtype": "int",
                    "is_symmetric": "False",
                    "max": 2.750995635986328,
                    "min": -1.280635952949524,
                    "offset": -81,
                    "scale": 0.015810320153832436
                }
            }
        },
        "body.6.act": {
            "output": {
                "0": {
                    "bitwidth": 8,
                    "dtype": "int",
                    "is_symmetric": "False",
                    "max": 1.0,
                    "min": 0.0,
                    "offset": 0,
                    "scale": 0.003921568859368563
                }
            }
        },
        "body.6.branch_3x3": {
            "output": {
                "0": {
                    "bitwidth": 8,
                    "dtype": "int",
                    "is_symmetric": "False",
                    "max": 3.2137856483459473,
                    "min": -1.4960726499557495,
                    "offset": -81,
                    "scale": 0.018470032140612602
                }
            }
        },
        "body.7.act": {
            "output": {
                "0": {
                    "bitwidth": 8,
                    "dtype": "int",
                    "is_symmetric": "False",
                    "max": 1.0,
                    "min": 0.0,
                    "offset": 0,
                    "scale": 0.003921568859368563
                }
            }
        },
        "body.7.branch_3x3": {
            "output": {
                "0": {
                    "bitwidth": 8,
                    "dtype": "int",
                    "is_symmetric": "False",
                    "max": 2.5335371494293213,
                    "min": -1.479207992553711,
                    "offset": -94,
                    "scale": 0.015736255794763565
                }
            }
        },
        "body_tail": {
            "output": {
                "0": {
                    "bitwidth": 8,
                    "dtype": "int",
                    "is_symmetric": "False",
                    "max": 0.5305327773094177,
                    "min": -1.1396631002426147,
                    "offset": -174,
                    "scale": 0.00654978770762682
                }
            }
        },
        "final_act": {
            "output": {
                "0": {
                    "bitwidth": 8,
                    "dtype": "int",
                    "is_symmetric": "False",
                    "max": 1.0,
                    "min": 0.0,
                    "offset": 0,
                    "scale": 0.003921568859368563
                }
            }
        },
        "head.0": {
            "input": {
                "0": {
                    "bitwidth": 8,
                    "dtype": "int",
                    "is_symmetric": "False",
                    "max": 1.0,
                    "min": 0.0,
                    "offset": 0,
                    "scale": 0.003921568859368563
                }
            },
            "output": {
                "0": {
                    "bitwidth": 8,
                    "dtype": "int",
                    "is_symmetric": "False",
                    "max": 1.0816062688827515,
                    "min": -1.4960535764694214,
                    "offset": -148,
                    "scale": 0.010108469985425472
                }
            }
        },
        "head.1": {
            "output": {
                "0": {
                    "bitwidth": 8,
                    "dtype": "int",
                    "is_symmetric": "False",
                    "max": 1.0,
                    "min": 0.0,
                    "offset": 0,
                    "scale": 0.003921568859368563
                }
            }
        },
        "module_add": {
            "output": {
                "0": {
                    "bitwidth": 8,
                    "dtype": "int",
                    "is_symmetric": "False",
                    "max": 0.8753617405891418,
                    "min": -0.8285866379737854,
                    "offset": -124,
                    "scale": 0.006682150531560183
                }
            }
        },
        "module_add_1": {
            "output": {
                "0": {
                    "bitwidth": 8,
                    "dtype": "int",
                    "is_symmetric": "False",
                    "max": 1.0953112840652466,
                    "min": -0.05883903428912163,
                    "offset": -13,
                    "scale": 0.004526079632341862
                }
            }
        },
        "upsample.0": {
            "output": {
                "0": {
                    "bitwidth": 8,
                    "dtype": "int",
                    "is_symmetric": "False",
                    "max": 0.4526714086532593,
                    "min": -0.46344929933547974,
                    "offset": -129,
                    "scale": 0.003592630149796605
                }
            }
        }
    },
    "excluded_layers": [],
    "param_encodings": {
        "base_upsampler.net.weight": [
            {
                "bitwidth": 8,
                "dtype": "int",
                "is_symmetric": "True",
                "max": 1.0060393810272217,
                "min": -1.0139609575271606,
                "offset": -128,
                "scale": 0.007921569980680943
            },
            {
                "bitwidth": 8,
                "dtype": "int",
                "is_symmetric": "True",
                "max": 1.0060393810272217,
                "min": -1.0139609575271606,
                "offset": -128,
                "scale": 0.007921569980680943
            },
            {
                "bitwidth": 8,
                "dtype": "int",
                "is_symmetric": "True",
                "max": 1.0060393810272217,
                "min": -1.0139609575271606,
                "offset": -128,
                "scale": 0.007921569980680943
            },
            {
                "bitwidth": 8,
                "dtype": "int",
                "is_symmetric": "True",
                "max": 1.0060393810272217,
                "min": -1.0139609575271606,
                "offset": -128,
                "scale": 0.007921569980680943
            },
            {
                "bitwidth": 8,
                "dtype": "int",
                "is_symmetric": "True",
                "max": 1.0060393810272217,
                "min": -1.0139609575271606,
                "offset": -128,
                "scale": 0.007921569980680943
            },
            {
                "bitwidth": 8,
                "dtype": "int",
                "is_symmetric": "True",
                "max": 1.0060393810272217,
                "min": -1.0139609575271606,
                "offset": -128,
                "scale": 0.007921569980680943
            },
            {
                "bitwidth": 8,
                "dtype": "int",
                "is_symmetric": "True",
                "max": 1.0060393810272217,
                "min": -1.0139609575271606,
                "offset": -128,
                "scale": 0.007921569980680943
            },
            {
                "bitwidth": 8,
                "dtype": "int",
                "is_symmetric": "True",
                "max": 1.0060393810272217,
                "min": -1.0139609575271606,
                "offset": -128,
                "scale": 0.007921569980680943
            },
            {
                "bitwidth": 8,
                "dtype": "int",
                "is_symmetric": "True",
                "max": 1.0060393810272217,
                "min": -1.0139609575271606,
                "offset": -128,
                "scale": 0.007921569980680943
            },
            {
                "bitwidth": 8,
                "dtype": "int",
                "is_symmetric": "True",
                "max": 1.0060393810272217,
                "min": -1.0139609575271606,
                "offset": -128,
                "scale": 0.007921569980680943
            },
            {
                "bitwidth": 8,
                "dtype": "int",
                "is_symmetric": "True",
                "max": 1.0060393810272217,
                "min": -1.0139609575271606,
                "offset": -128,
                "scale": 0.007921569980680943
            },
            {
                "bitwidth": 8,
                "dtype": "int",
                "is_symmetric": "True",
                "max": 1.0060393810272217,
                "min": -1.0139609575271606,
                "offset": -128,
                "scale": 0.007921569980680943
            },
            {
                "bitwidth": 8,
                "dtype": "int",
                "is_symmetric": "True",
                "max": 1.0060393810272217,
                "min": -1.0139609575271606,
                "offset": -128,
                "scale": 0.007921569980680943
            },
            {
                "bitwidth": 8,
                "dtype": "int",
                "is_symmetric": "True",
                "max": 1.0060393810272217,
                "min": -1.0139609575271606,
                "offset": -128,
                "scale": 0.007921569980680943
            },
            {
                "bitwidth": 8,
                "dtype": "int",
                "is_symmetric": "True",
                "max": 1.0060393810272217,
                "min": -1.0139609575271606,
                "offset": -128,
                "scale": 0.007921569980680943
            },
            {
                "bitwidth": 8,
                "dtype": "int",
                "is_symmetric": "True",
                "max": 1.0060393810272217,
                "min": -1.0139609575271606,
                "offset": -128,
                "scale": 0.007921569980680943
            },
            {
                "bitwidth": 8,
                "dtype": "int",
                "is_symmetric": "True",
                "max": 1.0060393810272217,
                "min": -1.0139609575271606,
                "offset": -128,
                "scale": 0.007921569980680943
            },
            {
                "bitwidth": 8,
                "dtype": "int",
                "is_symmetric": "True",
                "max": 1.0060393810272217,
                "min": -1.0139609575271606,
                "offset": -128,
                "scale": 0.007921569980680943
            },
            {
                "bitwidth": 8,
                "dtype": "int",
                "is_symmetric": "True",
                "max": 1.0060393810272217,
                "min": -1.0139609575271606,
                "offset": -128,
                "scale": 0.007921569980680943
            },
            {
                "bitwidth": 8,
                "dtype": "int",
                "is_symmetric": "True",
                "max": 1.0060393810272217,
                "min": -1.0139609575271606,
                "offset": -128,
                "scale": 0.007921569980680943
            },
            {
                "bitwidth": 8,
                "dtype": "int",
                "is_symmetric": "True",
                "max": 1.0060393810272217,
                "min": -1.0139609575271606,
                "offset": -128,
                "scale": 0.007921569980680943
            },
            {
                "bitwidth": 8,
                "dtype": "int",
                "is_symmetric": "True",
                "max": 1.0060393810272217,
                "min": -1.0139609575271606,
                "offset": -128,
                "scale": 0.007921569980680943
            },
            {
                "bitwidth": 8,
                "dtype": "int",
                "is_symmetric": "True",
                "max": 1.0060393810272217,
                "min": -1.0139609575271606,
                "offset": -128,
                "scale": 0.007921569980680943
            },
            {
                "bitwidth": 8,
                "dtype": "int",
                "is_symmetric": "True",
                "max": 1.0060393810272217,
                "min": -1.0139609575271606,
                "offset": -128,
                "scale": 0.007921569980680943
            },
            {
                "bitwidth": 8,
                "dtype": "int",
                "is_symmetric": "True",
                "max": 1.0060393810272217,
                "min": -1.0139609575271606,
                "offset": -128,
                "scale": 0.007921569980680943
            },
            {
                "bitwidth": 8,
                "dtype": "int",
                "is_symmetric": "True",
                "max": 1.0060393810272217,
                "min": -1.0139609575271606,
                "offset": -128,
                "scale": 0.007921569980680943
            },
            {
                "bitwidth": 8,
                "dtype": "int",
                "is_symmetric": "True",
                "max": 1.0060393810272217,
                "min": -1.0139609575271606,
                "offset": -128,
                "scale": 0.007921569980680943
            },
            {
                "bitwidth": 8,
                "dtype": "int",
                "is_symmetric": "True",
                "max": 1.0060393810272217,
                "min": -1.0139609575271606,
                "offset": -128,
                "scale": 0.007921569980680943
            },
            {
                "bitwidth": 8,
                "dtype": "int",
                "is_symmetric": "True",
                "max": 1.0060393810272217,
                "min": -1.0139609575271606,
                "offset": -128,
                "scale": 0.007921569980680943
            },
            {
                "bitwidth": 8,
                "dtype": "int",
                "is_symmetric": "True",
                "max": 1.0060393810272217,
                "min": -1.0139609575271606,
                "offset": -128,
                "scale": 0.007921569980680943
            },
            {
                "bitwidth": 8,
                "dtype": "int",
                "is_symmetric": "True",
                "max": 1.0060393810272217,
                "min": -1.0139609575271606,
                "offset": -128,
                "scale": 0.007921569980680943
            },
            {
                "bitwidth": 8,
                "dtype": "int",
                "is_symmetric": "True",
                "max": 1.0060393810272217,
                "min": -1.0139609575271606,
                "offset": -128,
                "scale": 0.007921569980680943
            },
            {
                "bitwidth": 8,
                "dtype": "int",
                "is_symmetric": "True",
                "max": 1.0060393810272217,
                "min": -1.0139609575271606,
                "offset": -128,
                "scale": 0.007921569980680943
            },
            {
                "bitwidth": 8,
                "dtype": "int",
                "is_symmetric": "True",
                "max": 1.0060393810272217,
                "min": -1.0139609575271606,
                "offset": -128,
                "scale": 0.007921569980680943
            },
            {
                "bitwidth": 8,
                "dtype": "int",
                "is_symmetric": "True",
                "max": 1.0060393810272217,
                "min": -1.0139609575271606,
                "offset": -128,
                "scale": 0.007921569980680943
            },
            {
                "bitwidth": 8,
                "dtype": "int",
                "is_symmetric": "True",
                "max": 1.0060393810272217,
                "min": -1.0139609575271606,
                "offset": -128,
                "scale": 0.007921569980680943
            },
            {
                "bitwidth": 8,
                "dtype": "int",
                "is_symmetric": "True",
                "max": 1.0060393810272217,
                "min": -1.0139609575271606,
                "offset": -128,
                "scale": 0.007921569980680943
            },
            {
                "bitwidth": 8,
                "dtype": "int",
                "is_symmetric": "True",
                "max": 1.0060393810272217,
                "min": -1.0139609575271606,
                "offset": -128,
                "scale": 0.007921569980680943
            },
            {
                "bitwidth": 8,
                "dtype": "int",
                "is_symmetric": "True",
                "max": 1.0060393810272217,
                "min": -1.0139609575271606,
                "offset": -128,
                "scale": 0.007921569980680943
            },
            {
                "bitwidth": 8,
                "dtype": "int",
                "is_symmetric": "True",
                "max": 1.0060393810272217,
                "min": -1.0139609575271606,
                "offset": -128,
                "scale": 0.007921569980680943
            },
            {
                "bitwidth": 8,
                "dtype": "int",
                "is_symmetric": "True",
                "max": 1.0060393810272217,
                "min": -1.0139609575271606,
                "offset": -128,
                "scale": 0.007921569980680943
            },
            {
                "bitwidth": 8,
                "dtype": "int",
                "is_symmetric": "True",
                "max": 1.0060393810272217,
                "min": -1.0139609575271606,
                "offset": -128,
                "scale": 0.007921569980680943
            },
            {
                "bitwidth": 8,
                "dtype": "int",
                "is_symmetric": "True",
                "max": 1.0060393810272217,
                "min": -1.0139609575271606,
                "offset": -128,
                "scale": 0.007921569980680943
            },
            {
                "bitwidth": 8,
                "dtype": "int",
                "is_symmetric": "True",
                "max": 1.0060393810272217,
                "min": -1.0139609575271606,
                "offset": -128,
                "scale": 0.007921569980680943
            },
            {
                "bitwidth": 8,
                "dtype": "int",
                "is_symmetric": "True",
                "max": 1.0060393810272217,
                "min": -1.0139609575271606,
                "offset": -128,
                "scale": 0.007921569980680943
            },
            {
                "bitwidth": 8,
                "dtype": "int",
                "is_symmetric": "True",
                "max": 1.0060393810272217,
                "min": -1.0139609575271606,
                "offset": -128,
                "scale": 0.007921569980680943
            },
            {
                "bitwidth": 8,
                "dtype": "int",
                "is_symmetric": "True",
                "max": 1.0060393810272217,
                "min": -1.0139609575271606,
                "offset": -128,
                "scale": 0.007921569980680943
            },
            {
                "bitwidth": 8,
                "dtype": "int",
                "is_symmetric": "True",
                "max": 1.0060393810272217,
                "min": -1.0139609575271606,
                "offset": -128,
                "scale": 0.007921569980680943
            }
        ],
        "body.0.branch_3x3.weight": [
            {
                "bitwidth": 8,
                "dtype": "int",
                "is_symmetric": "True",
                "max": 1.073743462562561,
                "min": -1.082198143005371,
                "offset": -128,
                "scale": 0.008454672992229462
            },
            {
                "bitwidth": 8,
                "dtype": "int",
                "is_symmetric": "True",
                "max": 0.9508925080299377,
                "min": -0.958379864692688,
                "offset": -128,
                "scale": 0.007487342692911625
            },
            {
                "bitwidth": 8,
                "dtype": "int",
                "is_symmetric": "True",
                "max": 0.8132062554359436,
                "min": -0.8196094632148743,
                "offset": -128,
                "scale": 0.006403198931366205
            },
            {
                "bitwidth": 8,
                "dtype": "int",
                "is_symmetric": "True",
                "max": 1.0358973741531372,
                "min": -1.0440540313720703,
                "offset": -128,
                "scale": 0.0081566721200943
            },
            {
                "bitwidth": 8,
                "dtype": "int",
                "is_symmetric": "True",
                "max": 0.5817539095878601,
                "min": -0.5863346457481384,
                "offset": -128,
                "scale": 0.0045807394199073315
            },
            {
                "bitwidth": 8,
                "dtype": "int",
                "is_symmetric": "True",
                "max": 0.9867403507232666,
                "min": -0.9945099353790283,
                "offset": -128,
                "scale": 0.007769608870148659
            },
            {
                "bitwidth": 8,
                "dtype": "int",
                "is_symmetric": "True",
                "max": 1.0395303964614868,
                "min": -1.047715663909912,
                "offset": -128,
                "scale": 0.008185278624296188
            },
            {
                "bitwidth": 8,
                "dtype": "int",
                "is_symmetric": "True",
                "max": 1.1697375774383545,
                "min": -1.178948163986206,
                "offset": -128,
                "scale": 0.009210532531142235
            },
            {
                "bitwidth": 8,
                "dtype": "int",
                "is_symmetric": "True",
                "max": 0.4599819481372833,
                "min": -0.4636038541793823,
                "offset": -128,
                "scale": 0.0036219051107764244
            },
            {
                "bitwidth": 8,
                "dtype": "int",
                "is_symmetric": "True",
                "max": 1.0681430101394653,
                "min": -1.0765535831451416,
                "offset": -128,
                "scale": 0.008410574868321419
            },
            {
                "bitwidth": 8,
                "dtype": "int",
                "is_symmetric": "True",
                "max": 0.8648945093154907,
                "min": -0.8717046976089478,
                "offset": -128,
                "scale": 0.006810192950069904
            },
            {
                "bitwidth": 8,
                "dtype": "int",
                "is_symmetric": "True",
                "max": 0.9224879741668701,
                "min": -0.9297516345977783,
                "offset": -128,
                "scale": 0.007263684645295143
            },
            {
                "bitwidth": 8,
                "dtype": "int",
                "is_symmetric": "True",
                "max": 0.9813258647918701,
                "min": -0.9890528321266174,
                "offset": -128,
                "scale": 0.007726975250989199
            },
            {
                "bitwidth": 8,
                "dtype": "int",
                "is_symmetric": "True",
                "max": 0.9536076188087463,
                "min": -0.9611163139343262,
                "offset": -128,
                "scale": 0.007508721202611923
            },
            {
                "bitwidth": 8,
                "dtype": "int",
                "is_symmetric": "True",
                "max": 1.1297481060028076,
                "min": -1.138643741607666,
                "offset": -128,
                "scale": 0.00889565423130989
            },
            {
                "bitwidth": 8,
                "dtype": "int",
                "is_symmetric": "True",
                "max": 1.0450003147125244,
                "min": -1.0532286167144775,
                "offset": -128,
                "scale": 0.008228348568081856
            },
            {
                "bitwidth": 8,
                "dtype": "int",
                "is_symmetric": "True",
                "max": 0.9785325527191162,
                "min": -0.9862375259399414,
                "offset": -128,
                "scale": 0.007704980671405792
            },
            {
                "bitwidth": 8,
                "dtype": "int",
                "is_symmetric": "True",
                "max": 0.9304862022399902,
                "min": -0.937812864780426,
                "offset": -128,
                "scale": 0.007326663006097078
            },
            {
                "bitwidth": 8,
                "dtype": "int",
                "is_symmetric": "True",
                "max": 0.9701017737388611,
                "min": -0.9777403473854065,
                "offset": -128,
                "scale": 0.007638596463948488
            },
            {
                "bitwidth": 8,
                "dtype": "int",
                "is_symmetric": "True",
                "max": 0.4522935450077057,
                "min": -0.4558549225330353,
                "offset": -128,
                "scale": 0.003561366582289338
            },
            {
                "bitwidth": 8,
                "dtype": "int",
                "is_symmetric": "True",
                "max": 1.1355605125427246,
                "min": -1.1445019245147705,
                "offset": -128,
                "scale": 0.008941421285271645
            },
            {
                "bitwidth": 8,
                "dtype": "int",
                "is_symmetric": "True",
                "max": 1.0029146671295166,
                "min": -1.010811686515808,
                "offset": -128,
                "scale": 0.00789696630090475
            },
            {
                "bitwidth": 8,
                "dtype": "int",
                "is_symmetric": "True",
                "max": 0.5183494091033936,
                "min": -0.5224308967590332,
                "offset": -128,
                "scale": 0.004081491380929947
            },
            {
                "bitwidth": 8,
                "dtype": "int",
                "is_symmetric": "True",
                "max": 0.9238089323043823,
                "min": -0.9310830235481262,
                "offset": -128,
                "scale": 0.007274086121469736
            },
            {
                "bitwidth": 8,
                "dtype": "int",
                "is_symmetric": "True",
                "max": 0.34752893447875977,
                "min": -0.35026538372039795,
                "offset": -128,
                "scale": 0.002736448310315609
            },
            {
                "bitwidth": 8,
                "dtype": "int",
                "is_symmetric": "True",
                "max": 0.9437239766120911,
                "min": -0.951154887676239,
                "offset": -128,
                "scale": 0.007430897559970617
            },
            {
                "bitwidth": 8,
                "dtype": "int",
                "is_symmetric": "True",
                "max": 1.1040812730789185,
                "min": -1.1127748489379883,
                "offset": -128,
                "scale": 0.008693553507328033
            },
            {
                "bitwidth": 8,
                "dtype": "int",
                "is_symmetric": "True",
                "max": 1.0953902006149292,
                "min": -1.1040153503417969,
                "offset": -128,
                "scale": 0.008625119924545288
            },
            {
                "bitwidth": 8,
                "dtype": "int",
                "is_symmetric": "True",
                "max": 1.0762475728988647,
                "min": -1.0847219228744507,
                "offset": -128,
                "scale": 0.008474390022456646
            },
            {
                "bitwidth": 8,
                "dtype": "int",
                "is_symmetric": "True",
                "max": 1.053828239440918,
                "min": -1.0621260404586792,
                "offset": -128,
                "scale": 0.008297859691083431
            },
            {
                "bitwidth": 8,
                "dtype": "int",
                "is_symmetric": "True",
                "max": 1.0595940351486206,
                "min": -1.0679372549057007,
                "offset": -128,
                "scale": 0.008343259803950787
            },
            {
                "bitwidth": 8,
                "dtype": "int",
                "is_symmetric": "True",
                "max": 1.0239555835723877,
                "min": -1.0320181846618652,
                "offset": -128,
                "scale": 0.008062642067670822
            }
        ],
        "body.1.branch_3x3.weight": [
            {
                "bitwidth": 8,
                "dtype": "int",
                "is_symmetric": "True",
                "max": 0.8149157762527466,
                "min": -0.8213324546813965,
                "offset": -128,
                "scale": 0.00641665980219841
            },
            {
                "bitwidth": 8,
                "dtype": "int",
                "is_symmetric": "True",
                "max": 0.6856042146682739,
                "min": -0.6910026669502258,
                "offset": -128,
                "scale": 0.005398458335548639
            },
            {
                "bitwidth": 8,
                "dtype": "int",
                "is_symmetric": "True",
                "max": 0.9368467330932617,
                "min": -0.9442234635353088,
                "offset": -128,
                "scale": 0.0073767458088696
            },
            {
                "bitwidth": 8,
                "dtype": "int",
                "is_symmetric": "True",
                "max": 0.8952318429946899,
                "min": -0.9022809267044067,
                "offset": -128,
                "scale": 0.007049069739878178
            },
            {
                "bitwidth": 8,
                "dtype": "int",
                "is_symmetric": "True",
                "max": 0.9405525326728821,
                "min": -0.9479584693908691,
                "offset": -128,
                "scale": 0.007405925542116165
            },
            {
                "bitwidth": 8,
                "dtype": "int",
                "is_symmetric": "True",
                "max": 0.7071400880813599,
                "min": -0.7127081155776978,
                "offset": -128,
                "scale": 0.005568032152950764
            },
            {
                "bitwidth": 8,
                "dtype": "int",
                "is_symmetric": "True",
                "max": 1.0574005842208862,
                "min": -1.0657265186309814,
                "offset": -128,
                "scale": 0.008325988426804543
            },
            {
                "bitwidth": 8,
                "dtype": "int",
                "is_symmetric": "True",
                "max": 0.8253927230834961,
                "min": -0.8318918943405151,
                "offset": -128,
                "scale": 0.0064991554245352745
            },
            {
                "bitwidth": 8,
                "dtype": "int",
                "is_symmetric": "True",
                "max": 0.6089645624160767,
                "min": -0.6137595772743225,
                "offset": -128,
                "scale": 0.004794996697455645
            },
            {
                "bitwidth": 8,
                "dtype": "int",
                "is_symmetric": "True",
                "max": 0.8848967552185059,
                "min": -0.8918644189834595,
                "offset": -128,
                "scale": 0.006967690773308277
            },
            {
                "bitwidth": 8,
                "dtype": "int",
                "is_symmetric": "True",
                "max": 0.9128784537315369,
                "min": -0.9200664758682251,
                "offset": -128,
                "scale": 0.007188019342720509
            },
            {
                "bitwidth": 8,
                "dtype": "int",
                "is_symmetric": "True",
                "max": 0.9740726351737976,
                "min": -0.9817425012588501,
                "offset": -128,
                "scale": 0.007669863291084766
            },
            {
                "bitwidth": 8,
                "dtype": "int",
                "is_symmetric": "True",
                "max": 1.0103161334991455,
                "min": -1.0182713270187378,
                "offset": -128,
                "scale": 0.007955244742333889
            },
            {
                "bitwidth": 8,
                "dtype": "int",
                "is_symmetric": "True",
                "max": 0.9080463647842407,
                "min": -0.9151963591575623,
                "offset": -128,
                "scale": 0.007149971555918455
            },
            {
                "bitwidth": 8,
                "dtype": "int",
                "is_symmetric": "True",
                "max": 0.5791842341423035,
                "min": -0.5837447643280029,
                "offset": -128,
                "scale": 0.004560505971312523
            },
            {
                "bitwidth": 8,
                "dtype": "int",
                "is_symmetric": "True",
                "max": 0.8353175520896912,
                "min": -0.8418948650360107,
                "offset": -128,
                "scale": 0.006577303633093834
            },
            {
                "bitwidth": 8,
                "dtype": "int",
                "is_symmetric": "True",
                "max": 0.8840360641479492,
                "min": -0.8909969925880432,
                "offset": -128,
                "scale": 0.006960914004594088
            },
            {
                "bitwidth": 8,
                "dtype": "int",
                "is_symmetric": "True",
                "max": 1.0566461086273193,
                "min": -1.0649662017822266,
                "offset": -128,
                "scale": 0.008320048451423645
            },
            {
                "bitwidth": 8,
                "dtype": "int",
                "is_symmetric": "True",
                "max": 0.9288969039916992,
                "min": -0.9362110495567322,
                "offset": -128,
                "scale": 0.00731414882466197
            },
            {
                "bitwidth": 8,
                "dtype": "int",
                "is_symmetric": "True",
                "max": 1.0564380884170532,
                "min": -1.0647565126419067,
                "offset": -128,
                "scale": 0.008318410255014896
            },
            {
                "bitwidth": 8,
                "dtype": "int",
                "is_symmetric": "True",
                "max": 0.8958917260169983,
                "min": -0.9029459953308105,
                "offset": -128,
                "scale": 0.007054265588521957
            },
            {
                "bitwidth": 8,
                "dtype": "int",
                "is_symmetric": "True",
                "max": 0.6332828998565674,
                "min": -0.6382693648338318,
                "offset": -128,
                "scale": 0.004986479412764311
            },
            {
                "bitwidth": 8,
                "dtype": "int",
                "is_symmetric": "True",
                "max": 0.6244348287582397,
                "min": -0.6293516159057617,
                "offset": -128,
                "scale": 0.004916809499263763
            },
            {
                "bitwidth": 8,
                "dtype": "int",
                "is_symmetric": "True",
                "max": 1.0886871814727783,
                "min": -1.097259521484375,
                "offset": -128,
                "scale": 0.00857234001159668
            },
            {
                "bitwidth": 8,
                "dtype": "int",
                "is_symmetric": "True",
                "max": 1.1074438095092773,
                "min": -1.1161638498306274,
                "offset": -128,
                "scale": 0.008720030076801777
            },
            {
                "bitwidth": 8,
                "dtype": "int",
                "is_symmetric": "True",
                "max": 0.879059374332428,
                "min": -0.8859810829162598,
                "offset": -128,
                "scale": 0.006921727210283279
            },
            {
                "bitwidth": 8,
                "dtype": "int",
                "is_symmetric": "True",
                "max": 0.8356759548187256,
                "min": -0.8422560691833496,
                "offset": -128,
                "scale": 0.006580125540494919
            },
            {
                "bitwidth": 8,
                "dtype": "int",
                "is_symmetric": "True",
                "max": 1.1229478120803833,
                "min": -1.1317899227142334,
                "offset": -128,
                "scale": 0.008842108771204948
            },
            {
                "bitwidth": 8,
                "dtype": "int",
                "is_symmetric": "True",
                "max": 1.1043485403060913,
                "min": -1.1130441427230835,
                "offset": -128,
                "scale": 0.00869565736502409
            },
            {
                "bitwidth": 8,
                "dtype": "int",
                "is_symmetric": "True",
                "max": 0.8056945204734802,
                "min": -0.8120386004447937,
                "offset": -128,
                "scale": 0.006344051565974951
            },
            {
                "bitwidth": 8,
                "dtype": "int",
                "is_symmetric": "True",
                "max": 0.6911553144454956,
                "min": -0.6965974569320679,
                "offset": -128,
                "scale": 0.00544216763228178
            },
            {
                "bitwidth": 8,
                "dtype": "int",
                "is_symmetric": "True",
                "max": 1.0454243421554565,
                "min": -1.053655982017517,
                "offset": -128,
                "scale": 0.008231687359511852
            }
        ],
        "body.2.branch_3x3.weight": [
            {
                "bitwidth": 8,
                "dtype": "int",
                "is_symmetric": "True",
                "max": 0.9544690847396851,
                "min": -0.9619845747947693,
                "offset": -128,
                "scale": 0.007515504490584135
            },
            {
                "bitwidth": 8,
                "dtype": "int",
                "is_symmetric": "True",
                "max": 1.0206077098846436,
                "min": -1.0286439657211304,
                "offset": -128,
                "scale": 0.008036280982196331
            },
            {
                "bitwidth": 8,
                "dtype": "int",
                "is_symmetric": "True",
                "max": 0.9573647975921631,
                "min": -0.9649031162261963,
                "offset": -128,
                "scale": 0.0075383055955171585
            },
            {
                "bitwidth": 8,
                "dtype": "int",
                "is_symmetric": "True",
                "max": 1.0976088047027588,
                "min": -1.1062513589859009,
                "offset": -128,
                "scale": 0.00864258874207735
            },
            {
                "bitwidth": 8,
                "dtype": "int",
                "is_symmetric": "True",
                "max": 0.9873973727226257,
                "min": -0.9951721429824829,
                "offset": -128,
                "scale": 0.007774782367050648
            },
            {
                "bitwidth": 8,
                "dtype": "int",
                "is_symmetric": "True",
                "max": 0.8884583115577698,
                "min": -0.8954540491104126,
                "offset": -128,
                "scale": 0.006995734758675098
            },
            {
                "bitwidth": 8,
                "dtype": "int",
                "is_symmetric": "True",
                "max": 1.0969513654708862,
                "min": -1.1055887937545776,
                "offset": -128,
                "scale": 0.008637412451207638
            },
            {
                "bitwidth": 8,
                "dtype": "int",
                "is_symmetric": "True",
                "max": 1.091653823852539,
                "min": -1.1002495288848877,
                "offset": -128,
                "scale": 0.008595699444413185
            },
            {
                "bitwidth": 8,
                "dtype": "int",
                "is_symmetric": "True",
                "max": 0.9859724640846252,
                "min": -0.9937360286712646,
                "offset": -128,
                "scale": 0.007763562723994255
            },
            {
                "bitwidth": 8,
                "dtype": "int",
                "is_symmetric": "True",
                "max": 1.0768795013427734,
                "min": -1.0853588581085205,
                "offset": -128,
                "scale": 0.008479366078972816
            },
            {
                "bitwidth": 8,
                "dtype": "int",
                "is_symmetric": "True",
                "max": 1.001451015472412,
                "min": -1.0093364715576172,
                "offset": -128,
                "scale": 0.007885441184043884
            },
            {
                "bitwidth": 8,
                "dtype": "int",
                "is_symmetric": "True",
                "max": 1.1691954135894775,
                "min": -1.1784017086029053,
                "offset": -128,
                "scale": 0.009206263348460197
            },
            {
                "bitwidth": 8,
                "dtype": "int",
                "is_symmetric": "True",
                "max": 0.8701066374778748,
                "min": -0.876957893371582,
                "offset": -128,
                "scale": 0.006851233541965485
            },
            {
                "bitwidth": 8,
                "dtype": "int",
                "is_symmetric": "True",
                "max": 0.8484805822372437,
                "min": -0.8551615476608276,
                "offset": -128,
                "scale": 0.006680949591100216
            },
            {
                "bitwidth": 8,
                "dtype": "int",
                "is_symmetric": "True",
                "max": 0.8199637532234192,
                "min": -0.8264201879501343,
                "offset": -128,
                "scale": 0.006456407718360424
            },
            {
                "bitwidth": 8,
                "dtype": "int",
                "is_symmetric": "True",
                "max": 0.9126062989234924,
                "min": -0.9197921752929688,
                "offset": -128,
                "scale": 0.007185876369476318
            },
            {
                "bitwidth": 8,
                "dtype": "int",
                "is_symmetric": "True",
                "max": 1.071515440940857,
                "min": -1.079952597618103,
                "offset": -128,
                "scale": 0.00843712966889143
            },
            {
                "bitwidth": 8,
                "dtype": "int",
                "is_symmetric": "True",
                "max": 1.087451457977295,
                "min": -1.0960140228271484,
                "offset": -128,
                "scale": 0.008562609553337097
            },
            {
                "bitwidth": 8,
                "dtype": "int",
                "is_symmetric": "True",
                "max": 1.0692641735076904,
                "min": -1.0776835680007935,
                "offset": -128,
                "scale": 0.008419402875006199
            },
            {
                "bitwidth": 8,
                "dtype": "int",
                "is_symmetric": "True",
                "max": 1.0577208995819092,
                "min": -1.0660494565963745,
                "offset": -128,
                "scale": 0.008328511379659176
            },
            {
                "bitwidth": 8,
                "dtype": "int",
                "is_symmetric": "True",
                "max": 0.8966594338417053,
                "min": -0.9037197232246399,
                "offset": -128,
                "scale": 0.007060310337692499
            },
            {
                "bitwidth": 8,
                "dtype": "int",
                "is_symmetric": "True",
                "max": 0.786750853061676,
                "min": -0.7929457426071167,
                "offset": -128,
                "scale": 0.006194888614118099
            },
            {
                "bitwidth": 8,
                "dtype": "int",
                "is_symmetric": "True",
                "max": 0.8981468081474304,
                "min": -0.9052188396453857,
                "offset": -128,
                "scale": 0.007072022184729576
            },
            {
                "bitwidth": 8,
                "dtype": "int",
                "is_symmetric": "True",
                "max": 0.8724167943000793,
                "min": -0.8792862296104431,
                "offset": -128,
                "scale": 0.006869423668831587
            },
            {
                "bitwidth": 8,
                "dtype": "int",
                "is_symmetric": "True",
                "max": 0.9968229532241821,
                "min": -1.0046719312667847,
                "offset": -128,
                "scale": 0.007848999463021755
            },
            {
                "bitwidth": 8,
                "dtype": "int",
                "is_symmetric": "True",
                "max": 1.1277841329574585,
                "min": -1.1366642713546753,
                "offset": -128,
                "scale": 0.0088801896199584
            },
            {
                "bitwidth": 8,
                "dtype": "int",
                "is_symmetric": "True",
                "max": 0.7950088381767273,
                "min": -0.8012687563896179,
                "offset": -128,
                "scale": 0.00625991215929389
            },
            {
                "bitwidth": 8,
                "dtype": "int",
                "is_symmetric": "True",
                "max": 1.037422776222229,
                "min": -1.0455914735794067,
                "offset": -128,
                "scale": 0.008168683387339115
            },
            {
                "bitwidth": 8,
                "dtype": "int",
                "is_symmetric": "True",
                "max": 0.8220297694206238,
                "min": -0.8285024166107178,
                "offset": -128,
                "scale": 0.006472675129771233
            },
            {
                "bitwidth": 8,
                "dtype": "int",
                "is_symmetric": "True",
                "max": 0.4688063859939575,
                "min": -0.47249776124954224,
                "offset": -128,
                "scale": 0.0036913887597620487
            },
            {
                "bitwidth": 8,
                "dtype": "int",
                "is_symmetric": "True",
                "max": 1.1110502481460571,
                "min": -1.1197986602783203,
                "offset": -128,
                "scale": 0.008748427033424377
            },
            {
                "bitwidth": 8,
                "dtype": "int",
                "is_symmetric": "True",
                "max": 0.4482332468032837,
                "min": -0.4517626464366913,
                "offset": -128,
                "scale": 0.0035293956752866507
            }
        ],
        "body.3.branch_3x3.weight": [
            {
                "bitwidth": 8,
                "dtype": "int",
                "is_symmetric": "True",
                "max": 0.8630452752113342,
                "min": -0.8698409199714661,
                "offset": -128,
                "scale": 0.006795632187277079
            },
            {
                "bitwidth": 8,
                "dtype": "int",
                "is_symmetric": "True",
                "max": 1.0912609100341797,
                "min": -1.099853515625,
                "offset": -128,
                "scale": 0.008592605590820312
            },
            {
                "bitwidth": 8,
                "dtype": "int",
                "is_symmetric": "True",
                "max": 1.0623098611831665,
                "min": -1.0706745386123657,
                "offset": -128,
                "scale": 0.008364644832909107
            },
            {
                "bitwidth": 8,
                "dtype": "int",
                "is_symmetric": "True",
                "max": 0.8705201745033264,
                "min": -0.8773746490478516,
                "offset": -128,
                "scale": 0.00685448944568634
            },
            {
                "bitwidth": 8,
                "dtype": "int",
                "is_symmetric": "True",
                "max": 0.7806434631347656,
                "min": -0.7867902517318726,
                "offset": -128,
                "scale": 0.006146798841655254
            },
            {
                "bitwidth": 8,
                "dtype": "int",
                "is_symmetric": "True",
                "max": 0.9060769081115723,
                "min": -0.9132113456726074,
                "offset": -128,
                "scale": 0.0071344636380672455
            },
            {
                "bitwidth": 8,
                "dtype": "int",
                "is_symmetric": "True",
                "max": 0.8217308521270752,
                "min": -0.828201174736023,
                "offset": -128,
                "scale": 0.006470321677625179
            },
            {
                "bitwidth": 8,
                "dtype": "int",
                "is_symmetric": "True",
                "max": 1.1683136224746704,
                "min": -1.1775128841400146,
                "offset": -128,
                "scale": 0.009199319407343864
            },
            {
                "bitwidth": 8,
                "dtype": "int",
                "is_symmetric": "True",
                "max": 0.8790538311004639,
                "min": -0.8859755396842957,
                "offset": -128,
                "scale": 0.00692168390378356
            },
            {
                "bitwidth": 8,
                "dtype": "int",
                "is_symmetric": "True",
                "max": 0.7973382472991943,
                "min": -0.8036165237426758,
                "offset": -128,
                "scale": 0.0062782540917396545
            },
            {
                "bitwidth": 8,
                "dtype": "int",
                "is_symmetric": "True",
                "max": 1.0581066608428955,
                "min": -1.0664381980895996,
                "offset": -128,
                "scale": 0.008331548422574997
            },
            {
                "bitwidth": 8,
                "dtype": "int",
                "is_symmetric": "True",
                "max": 0.9675630927085876,
                "min": -0.9751816987991333,
                "offset": -128,
                "scale": 0.007618607021868229
            },
            {
                "bitwidth": 8,
                "dtype": "int",
                "is_symmetric": "True",
                "max": 0.805641770362854,
                "min": -0.811985433101654,
                "offset": -128,
                "scale": 0.006343636196106672
            },
            {
                "bitwidth": 8,
                "dtype": "int",
                "is_symmetric": "True",
                "max": 1.0083359479904175,
                "min": -1.0162756443023682,
                "offset": -128,
                "scale": 0.007939653471112251
            },
            {
                "bitwidth": 8,
                "dtype": "int",
                "is_symmetric": "True",
                "max": 0.7274145483970642,
                "min": -0.7331421971321106,
                "offset": -128,
                "scale": 0.005727673415094614
            },
            {
                "bitwidth": 8,
                "dtype": "int",
                "is_symmetric": "True",
                "max": 0.2727271020412445,
                "min": -0.27487456798553467,
                "offset": -128,
                "scale": 0.0021474575623869896
            },
            {
                "bitwidth": 8,
                "dtype": "int",
                "is_symmetric": "True",
                "max": 1.0560805797576904,
                "min": -1.0643961429595947,
                "offset": -128,
                "scale": 0.008315594866871834
            },
            {
                "bitwidth": 8,
                "dtype": "int",
                "is_symmetric": "True",
                "max": 0.5974641442298889,
                "min": -0.6021685600280762,
                "offset": -128,
                "scale": 0.004704441875219345
            },
            {
                "bitwidth": 8,
                "dtype": "int",
                "is_symmetric": "True",
                "max": 1.1011701822280884,
                "min": -1.1098408699035645,
                "offset": -128,
                "scale": 0.008670631796121597
            },
            {
                "bitwidth": 8,
                "dtype": "int",
                "is_symmetric": "True",
                "max": 0.9540613889694214,
                "min": -0.9615736603736877,
                "offset": -128,
                "scale": 0.0075122942216694355
            },
            {
                "bitwidth": 8,
                "dtype": "int",
                "is_symmetric": "True",
                "max": 1.0119867324829102,
                "min": -1.0199551582336426,
                "offset": -128,
                "scale": 0.007968399673700333
            },
            {
                "bitwidth": 8,
                "dtype": "int",
                "is_symmetric": "True",
                "max": 1.1584980487823486,
                "min": -1.167620062828064,
                "offset": -128,
                "scale": 0.00912203174084425
            },
            {
                "bitwidth": 8,
                "dtype": "int",
                "is_symmetric": "True",
                "max": 1.0250312089920044,
                "min": -1.03310227394104,
                "offset": -128,
                "scale": 0.008071111515164375
            },
            {
                "bitwidth": 8,
                "dtype": "int",
                "is_symmetric": "True",
                "max": 0.9787415862083435,
                "min": -0.9864482283592224,
                "offset": -128,
                "scale": 0.007706626784056425
            },
            {
                "bitwidth": 8,
                "dtype": "int",
                "is_symmetric": "True",
                "max": 0.7114846110343933,
                "min": -0.7170868515968323,
                "offset": -128,
                "scale": 0.005602241028100252
            },
            {
                "bitwidth": 8,
                "dtype": "int",
                "is_symmetric": "True",
                "max": 0.469883531332016,
                "min": -0.4735834002494812,
                "offset": -128,
                "scale": 0.003699870314449072
            },
            {
                "bitwidth": 8,
                "dtype": "int",
                "is_symmetric": "True",
                "max": 0.7820913195610046,
                "min": -0.7882494926452637,
                "offset": -128,
                "scale": 0.0061581991612911224
            },
            {
                "bitwidth": 8,
                "dtype": "int",
                "is_symmetric": "True",
                "max": 0.9211291670799255,
                "min": -0.928382158279419,
                "offset": -128,
                "scale": 0.0072529856115579605
            },
            {
                "bitwidth": 8,
                "dtype": "int",
                "is_symmetric": "True",
                "max": 0.9289152026176453,
                "min": -0.9362294673919678,
                "offset": -128,
                "scale": 0.007314292713999748
            },
            {
                "bitwidth": 8,
                "dtype": "int",
                "is_symmetric": "True",
                "max": 0.9680584073066711,
                "min": -0.9756808876991272,
                "offset": -128,
                "scale": 0.007622506935149431
            },
            {
                "bitwidth": 8,
                "dtype": "int",
                "is_symmetric": "True",
                "max": 1.082321286201477,
                "min": -1.0908435583114624,
                "offset": -128,
                "scale": 0.0085222152993083
            },
            {
                "bitwidth": 8,
                "dtype": "int",
                "is_symmetric": "True",
                "max": 0.957055389881134,
                "min": -0.9645912647247314,
                "offset": -128,
                "scale": 0.007535869255661964
            }
        ],
        "body.4.branch_3x3.weight": [
            {
                "bitwidth": 8,
                "dtype": "int",
                "is_symmetric": "True",
                "max": 0.844326376914978,
                "min": -0.8509746193885803,
                "offset": -128,
                "scale": 0.006648239213973284
            },
            {
                "bitwidth": 8,
                "dtype": "int",
                "is_symmetric": "True",
                "max": 0.6841626167297363,
                "min": -0.6895497441291809,
                "offset": -128,
                "scale": 0.005387107376009226
            },
            {
                "bitwidth": 8,
                "dtype": "int",
                "is_symmetric": "True",
                "max": 0.33198022842407227,
                "min": -0.3345942497253418,
                "offset": -128,
                "scale": 0.002614017575979233
            },
            {
                "bitwidth": 8,
                "dtype": "int",
                "is_symmetric": "True",
                "max": 0.3234480321407318,
                "min": -0.3259948790073395,
                "offset": -128,
                "scale": 0.0025468349922448397
            },
            {
                "bitwidth": 8,
                "dtype": "int",
                "is_symmetric": "True",
                "max": 0.9119132161140442,
                "min": -0.9190936088562012,
                "offset": -128,
                "scale": 0.007180418819189072
            },
            {
                "bitwidth": 8,
                "dtype": "int",
                "is_symmetric": "True",
                "max": 0.867355465888977,
                "min": -0.8741850256919861,
                "offset": -128,
                "scale": 0.006829570513218641
            },
            {
                "bitwidth": 8,
                "dtype": "int",
                "is_symmetric": "True",
                "max": 1.1269782781600952,
                "min": -1.1358520984649658,
                "offset": -128,
                "scale": 0.008873844519257545
            },
            {
                "bitwidth": 8,
                "dtype": "int",
                "is_symmetric": "True",
                "max": 0.8286972641944885,
                "min": -0.8352224230766296,
                "offset": -128,
                "scale": 0.006525175180286169
            },
            {
                "bitwidth": 8,
                "dtype": "int",
                "is_symmetric": "True",
                "max": 0.892950177192688,
                "min": -0.8999812602996826,
                "offset": -128,
                "scale": 0.0070311035960912704
            },
            {
                "bitwidth": 8,
                "dtype": "int",
                "is_symmetric": "True",
                "max": 1.0233039855957031,
                "min": -1.03136146068573,
                "offset": -128,
                "scale": 0.008057511411607265
            },
            {
                "bitwidth": 8,
                "dtype": "int",
                "is_symmetric": "True",
                "max": 1.0650267601013184,
                "min": -1.0734127759933472,
                "offset": -128,
                "scale": 0.008386037312448025
            },
            {
                "bitwidth": 8,
                "dtype": "int",
                "is_symmetric": "True",
                "max": 1.1025437116622925,
                "min": -1.1112251281738281,
                "offset": -128,
                "scale": 0.008681446313858032
            },
            {
                "bitwidth": 8,
                "dtype": "int",
                "is_symmetric": "True",
                "max": 0.45013436675071716,
                "min": -0.4536787271499634,
                "offset": -128,
                "scale": 0.003544365055859089
            },
            {
                "bitwidth": 8,
                "dtype": "int",
                "is_symmetric": "True",
                "max": 1.0991789102554321,
                "min": -1.1078338623046875,
                "offset": -128,
                "scale": 0.008654952049255371
            },
            {
                "bitwidth": 8,
                "dtype": "int",
                "is_symmetric": "True",
                "max": 0.7638211846351624,
                "min": -0.7698355317115784,
                "offset": -128,
                "scale": 0.006014340091496706
            },
            {
                "bitwidth": 8,
                "dtype": "int",
                "is_symmetric": "True",
                "max": 1.0957878828048706,
                "min": -1.1044161319732666,
                "offset": -128,
                "scale": 0.008628251031041145
            },
            {
                "bitwidth": 8,
                "dtype": "int",
                "is_symmetric": "True",
                "max": 0.8168001770973206,
                "min": -0.8232316970825195,
                "offset": -128,
                "scale": 0.006431497633457184
            },
            {
                "bitwidth": 8,
                "dtype": "int",
                "is_symmetric": "True",
                "max": 1.0951887369155884,
                "min": -1.1038122177124023,
                "offset": -128,
                "scale": 0.008623532950878143
            },
            {
                "bitwidth": 8,
                "dtype": "int",
                "is_symmetric": "True",
                "max": 0.7887205481529236,
                "min": -0.7949309349060059,
                "offset": -128,
                "scale": 0.006210397928953171
            },
            {
                "bitwidth": 8,
                "dtype": "int",
                "is_symmetric": "True",
                "max": 1.1203036308288574,
                "min": -1.1291248798370361,
                "offset": -128,
                "scale": 0.008821288123726845
            },
            {
                "bitwidth": 8,
                "dtype": "int",
                "is_symmetric": "True",
                "max": 0.7815394401550293,
                "min": -0.7876933217048645,
                "offset": -128,
                "scale": 0.006153854075819254
            },
            {
                "bitwidth": 8,
                "dtype": "int",
                "is_symmetric": "True",
                "max": 0.7745731472969055,
                "min": -0.7806721329689026,
                "offset": -128,
                "scale": 0.0060990010388195515
            },
            {
                "bitwidth": 8,
                "dtype": "int",
                "is_symmetric": "True",
                "max": 0.9147478938102722,
                "min": -0.92195063829422,
                "offset": -128,
                "scale": 0.0072027393616735935
            },
            {
                "bitwidth": 8,
                "dtype": "int",
                "is_symmetric": "True",
                "max": 1.0564720630645752,
                "min": -1.0647907257080078,
                "offset": -128,
                "scale": 0.008318677544593811
            },
            {
                "bitwidth": 8,
                "dtype": "int",
                "is_symmetric": "True",
                "max": 0.9146770238876343,
                "min": -0.921879231929779,
                "offset": -128,
                "scale": 0.007202181499451399
            },
            {
                "bitwidth": 8,
                "dtype": "int",
                "is_symmetric": "True",
                "max": 1.1398245096206665,
                "min": -1.1487995386123657,
                "offset": -128,
                "scale": 0.008974996395409107
            },
            {
                "bitwidth": 8,
                "dtype": "int",
                "is_symmetric": "True",
                "max": 0.8116695284843445,
                "min": -0.8180606365203857,
                "offset": -128,
                "scale": 0.006391098722815514
            },
            {
                "bitwidth": 8,
                "dtype": "int",
                "is_symmetric": "True",
                "max": 0.9696300029754639,
                "min": -0.9772648811340332,
                "offset": -128,
                "scale": 0.007634881883859634
            },
            {
                "bitwidth": 8,
                "dtype": "int",
                "is_symmetric": "True",
                "max": 0.769609808921814,
                "min": -0.7756697535514832,
                "offset": -128,
                "scale": 0.006059919949620962
            },
            {
                "bitwidth": 8,
                "dtype": "int",
                "is_symmetric": "True",
                "max": 0.9543659687042236,
                "min": -0.9618806838989258,
                "offset": -128,
                "scale": 0.007514692842960358
            },
            {
                "bitwidth": 8,
                "dtype": "int",
                "is_symmetric": "True",
                "max": 0.9270652532577515,
                "min": -0.9343649744987488,
                "offset": -128,
                "scale": 0.007299726363271475
            },
            {
                "bitwidth": 8,
                "dtype": "int",
                "is_symmetric": "True",
                "max": 0.9055051803588867,
                "min": -0.9126351475715637,
                "offset": -128,
                "scale": 0.007129962090402842
            }
        ],
        "body.5.branch_3x3.weight": [
            {
                "bitwidth": 8,
                "dtype": "int",
                "is_symmetric": "True",
                "max": 1.132174015045166,
                "min": -1.1410887241363525,
                "offset": -128,
                "scale": 0.008914755657315254
            },
            {
                "bitwidth": 8,
                "dtype": "int",
                "is_symmetric": "True",
                "max": 0.6972199082374573,
                "min": -0.7027098536491394,
                "offset": -128,
                "scale": 0.005489920731633902
            },
            {
                "bitwidth": 8,
                "dtype": "int",
                "is_symmetric": "True",
                "max": 0.9055470824241638,
                "min": -0.9126773476600647,
                "offset": -128,
                "scale": 0.0071302917785942554
            },
            {
                "bitwidth": 8,
                "dtype": "int",
                "is_symmetric": "True",
                "max": 0.7930010557174683,
                "min": -0.7992451786994934,
                "offset": -128,
                "scale": 0.006244102958589792
            },
            {
                "bitwidth": 8,
                "dtype": "int",
                "is_symmetric": "True",
                "max": 1.0728574991226196,
                "min": -1.0813051462173462,
                "offset": -128,
                "scale": 0.008447696454823017
            },
            {
                "bitwidth": 8,
                "dtype": "int",
                "is_symmetric": "True",
                "max": 0.8809271454811096,
                "min": -0.8878635764122009,
                "offset": -128,
                "scale": 0.00693643419072032
            },
            {
                "bitwidth": 8,
                "dtype": "int",
                "is_symmetric": "True",
                "max": 0.8628628253936768,
                "min": -0.869657039642334,
                "offset": -128,
                "scale": 0.006794195622205734
            },
            {
                "bitwidth": 8,
                "dtype": "int",
                "is_symmetric": "True",
                "max": 0.9549234509468079,
                "min": -0.9624425172805786,
                "offset": -128,
                "scale": 0.00751908216625452
            },
            {
                "bitwidth": 8,
                "dtype": "int",
                "is_symmetric": "True",
                "max": 0.9171839356422424,
                "min": -0.9244058728218079,
                "offset": -128,
                "scale": 0.007221920881420374
            },
            {
                "bitwidth": 8,
                "dtype": "int",
                "is_symmetric": "True",
                "max": 0.8371080160140991,
                "min": -0.8436993956565857,
                "offset": -128,
                "scale": 0.006591401528567076
            },
            {
                "bitwidth": 8,
                "dtype": "int",
                "is_symmetric": "True",
                "max": 0.8564394116401672,
                "min": -0.8631830215454102,
                "offset": -128,
                "scale": 0.006743617355823517
            },
            {
                "bitwidth": 8,
                "dtype": "int",
                "is_symmetric": "True",
                "max": 0.9750269055366516,
                "min": -0.9827042818069458,
                "offset": -128,
                "scale": 0.007677377201616764
            },
            {
                "bitwidth": 8,
                "dtype": "int",
                "is_symmetric": "True",
                "max": 1.0586274862289429,
                "min": -1.0669630765914917,
                "offset": -128,
                "scale": 0.008335649035871029
            },
            {
                "bitwidth": 8,
                "dtype": "int",
                "is_symmetric": "True",
                "max": 1.052285075187683,
                "min": -1.0605708360671997,
                "offset": -128,
                "scale": 0.008285709656774998
            },
            {
                "bitwidth": 8,
                "dtype": "int",
                "is_symmetric": "True",
                "max": 1.0893938541412354,
                "min": -1.097971796989441,
                "offset": -128,
                "scale": 0.008577904663980007
            },
            {
                "bitwidth": 8,
                "dtype": "int",
                "is_symmetric": "True",
                "max": 0.9309348464012146,
                "min": -0.9382650256156921,
                "offset": -128,
                "scale": 0.007330195512622595
            },
            {
                "bitwidth": 8,
                "dtype": "int",
                "is_symmetric": "True",
                "max": 0.9599058032035828,
                "min": -0.9674640893936157,
                "offset": -128,
                "scale": 0.007558313198387623
            },
            {
                "bitwidth": 8,
                "dtype": "int",
                "is_symmetric": "True",
                "max": 0.7580888867378235,
                "min": -0.7640581130981445,
                "offset": -128,
                "scale": 0.005969204008579254
            },
            {
                "bitwidth": 8,
                "dtype": "int",
                "is_symmetric": "True",
                "max": 0.8894477486610413,
                "min": -0.8964512944221497,
                "offset": -128,
                "scale": 0.007003525737673044
            },
            {
                "bitwidth": 8,
                "dtype": "int",
                "is_symmetric": "True",
                "max": 0.7882334589958191,
                "min": -0.7944400310516357,
                "offset": -128,
                "scale": 0.006206562742590904
            },
            {
                "bitwidth": 8,
                "dtype": "int",
                "is_symmetric": "True",
                "max": 0.9727227091789246,
                "min": -0.980381965637207,
                "offset": -128,
                "scale": 0.00765923410654068
            },
            {
                "bitwidth": 8,
                "dtype": "int",
                "is_symmetric": "True",
                "max": 0.9185302257537842,
                "min": -0.9257627725601196,
                "offset": -128,
                "scale": 0.007232521660625935
            },
            {
                "bitwidth": 8,
                "dtype": "int",
                "is_symmetric": "True",
                "max": 0.8646801114082336,
                "min": -0.871488630771637,
                "offset": -128,
                "scale": 0.006808504927903414
            },
            {
                "bitwidth": 8,
                "dtype": "int",
                "is_symmetric": "True",
                "max": 0.382037490606308,
                "min": -0.3850456476211548,
                "offset": -128,
                "scale": 0.0030081691220402718
            },
            {
                "bitwidth": 8,
                "dtype": "int",
                "is_symmetric": "True",
                "max": 0.9400603771209717,
                "min": -0.9474624395370483,
                "offset": -128,
                "scale": 0.00740205030888319
            },
            {
                "bitwidth": 8,
                "dtype": "int",
                "is_symmetric": "True",
                "max": 1.1174639463424683,
                "min": -1.126262903213501,
                "offset": -128,
                "scale": 0.008798928931355476
            },
            {
                "bitwidth": 8,
                "dtype": "int",
                "is_symmetric": "True",
                "max": 1.0343683958053589,
                "min": -1.0425130128860474,
                "offset": -128,
                "scale": 0.008144632913172245
            },
            {
                "bitwidth": 8,
                "dtype": "int",
                "is_symmetric": "True",
                "max": 0.8488390445709229,
                "min": -0.8555228114128113,
                "offset": -128,
                "scale": 0.006683771964162588
            },
            {
                "bitwidth": 8,
                "dtype": "int",
                "is_symmetric": "True",
                "max": 1.0626939535140991,
                "min": -1.071061611175537,
                "offset": -128,
                "scale": 0.008367668837308884
            },
            {
                "bitwidth": 8,
                "dtype": "int",
                "is_symmetric": "True",
                "max": 1.1080232858657837,
                "min": -1.1167478561401367,
                "offset": -128,
                "scale": 0.008724592626094818
            },
            {
                "bitwidth": 8,
                "dtype": "int",
                "is_symmetric": "True",
                "max": 0.9055136442184448,
                "min": -0.9126436710357666,
                "offset": -128,
                "scale": 0.007130028679966927
            },
            {
                "bitwidth": 8,
                "dtype": "int",
                "is_symmetric": "True",
                "max": 0.811100423336029,
                "min": -0.8174870610237122,
                "offset": -128,
                "scale": 0.006386617664247751
            }
        ],
        "body.6.branch_3x3.weight": [
            {
                "bitwidth": 8,
                "dtype": "int",
                "is_symmetric": "True",
                "max": 1.0741482973098755,
                "min": -1.0826061964035034,
                "offset": -128,
                "scale": 0.00845786090940237
            },
            {
                "bitwidth": 8,
                "dtype": "int",
                "is_symmetric": "True",
                "max": 1.117706060409546,
                "min": -1.1265069246292114,
                "offset": -128,
                "scale": 0.008800835348665714
            },
            {
                "bitwidth": 8,
                "dtype": "int",
                "is_symmetric": "True",
                "max": 1.042487382888794,
                "min": -1.0506958961486816,
                "offset": -128,
                "scale": 0.008208561688661575
            },
            {
                "bitwidth": 8,
                "dtype": "int",
                "is_symmetric": "True",
                "max": 0.9004466533660889,
                "min": -0.9075368046760559,
                "offset": -128,
                "scale": 0.007090131286531687
            },
            {
                "bitwidth": 8,
                "dtype": "int",
                "is_symmetric": "True",
                "max": 0.9117424488067627,
                "min": -0.9189215302467346,
                "offset": -128,
                "scale": 0.007179074455052614
            },
            {
                "bitwidth": 8,
                "dtype": "int",
                "is_symmetric": "True",
                "max": 0.9565980434417725,
                "min": -0.9641302824020386,
                "offset": -128,
                "scale": 0.007532267831265926
            },
            {
                "bitwidth": 8,
                "dtype": "int",
                "is_symmetric": "True",
                "max": 0.9774194955825806,
                "min": -0.9851157069206238,
                "offset": -128,
                "scale": 0.007696216460317373
            },
            {
                "bitwidth": 8,
                "dtype": "int",
                "is_symmetric": "True",
                "max": 0.8450209498405457,
                "min": -0.8516746759414673,
                "offset": -128,
                "scale": 0.006653708405792713
            },
            {
                "bitwidth": 8,
                "dtype": "int",
                "is_symmetric": "True",
                "max": 0.9556503891944885,
                "min": -0.9631751775741577,
                "offset": -128,
                "scale": 0.007524806074798107
            },
            {
                "bitwidth": 8,
                "dtype": "int",
                "is_symmetric": "True",
                "max": 1.0168347358703613,
                "min": -1.02484130859375,
                "offset": -128,
                "scale": 0.008006572723388672
            },
            {
                "bitwidth": 8,
                "dtype": "int",
                "is_symmetric": "True",
                "max": 1.0140399932861328,
                "min": -1.0220245122909546,
                "offset": -128,
                "scale": 0.007984566502273083
            },
            {
                "bitwidth": 8,
                "dtype": "int",
                "is_symmetric": "True",
                "max": 0.9655394554138184,
                "min": -0.973142147064209,
                "offset": -128,
                "scale": 0.007602673023939133
            },
            {
                "bitwidth": 8,
                "dtype": "int",
                "is_symmetric": "True",
                "max": 1.1455602645874023,
                "min": -1.1545804738998413,
                "offset": -128,
                "scale": 0.00902015995234251
            },
            {
                "bitwidth": 8,
                "dtype": "int",
                "is_symmetric": "True",
                "max": 0.7764598727226257,
                "min": -0.7825737595558167,
                "offset": -128,
                "scale": 0.006113857496529818
            },
            {
                "bitwidth": 8,
                "dtype": "int",
                "is_symmetric": "True",
                "max": 1.0915052890777588,
                "min": -1.100099802017212,
                "offset": -128,
                "scale": 0.008594529703259468
            },
            {
                "bitwidth": 8,
                "dtype": "int",
                "is_symmetric": "True",
                "max": 0.7808919548988342,
                "min": -0.7870407104492188,
                "offset": -128,
                "scale": 0.0061487555503845215
            },
            {
                "bitwidth": 8,
                "dtype": "int",
                "is_symmetric": "True",
                "max": 1.0831507444381714,
                "min": -1.0916794538497925,
                "offset": -128,
                "scale": 0.008528745733201504
            },
            {
                "bitwidth": 8,
                "dtype": "int",
                "is_symmetric": "True",
                "max": 0.945961594581604,
                "min": -0.9534100890159607,
                "offset": -128,
                "scale": 0.007448516320437193
            },
            {
                "bitwidth": 8,
                "dtype": "int",
                "is_symmetric": "True",
                "max": 0.982599139213562,
                "min": -0.9903361201286316,
                "offset": -128,
                "scale": 0.007737000938504934
            },
            {
                "bitwidth": 8,
                "dtype": "int",
                "is_symmetric": "True",
                "max": 1.108473300933838,
                "min": -1.1172014474868774,
                "offset": -128,
                "scale": 0.00872813630849123
            },
            {
                "bitwidth": 8,
                "dtype": "int",
                "is_symmetric": "True",
                "max": 0.869626522064209,
                "min": -0.8764739632606506,
                "offset": -128,
                "scale": 0.006847452837973833
            },
            {
                "bitwidth": 8,
                "dtype": "int",
                "is_symmetric": "True",
                "max": 0.8576399087905884,
                "min": -0.8643929958343506,
                "offset": -128,
                "scale": 0.006753070279955864
            },
            {
                "bitwidth": 8,
                "dtype": "int",
                "is_symmetric": "True",
                "max": 0.8268929123878479,
                "min": -0.8334038853645325,
                "offset": -128,
                "scale": 0.00651096785441041
            },
            {
                "bitwidth": 8,
                "dtype": "int",
                "is_symmetric": "True",
                "max": 1.0976636409759521,
                "min": -1.1063066720962524,
                "offset": -128,
                "scale": 0.008643020875751972
            },
            {
                "bitwidth": 8,
                "dtype": "int",
                "is_symmetric": "True",
                "max": 1.0066862106323242,
                "min": -1.0146129131317139,
                "offset": -128,
                "scale": 0.007926663383841515
            },
            {
                "bitwidth": 8,
                "dtype": "int",
                "is_symmetric": "True",
                "max": 0.39659276604652405,
                "min": -0.3997155427932739,
                "offset": -128,
                "scale": 0.0031227776780724525
            },
            {
                "bitwidth": 8,
                "dtype": "int",
                "is_symmetric": "True",
                "max": 0.8878427147865295,
                "min": -0.8948336243629456,
                "offset": -128,
                "scale": 0.006990887690335512
            },
            {
                "bitwidth": 8,
                "dtype": "int",
                "is_symmetric": "True",
                "max": 0.7361598014831543,
                "min": -0.741956353187561,
                "offset": -128,
                "scale": 0.005796534009277821
            },
            {
                "bitwidth": 8,
                "dtype": "int",
                "is_symmetric": "True",
                "max": 1.0115373134613037,
                "min": -1.0195021629333496,
                "offset": -128,
                "scale": 0.007964860647916794
            },
            {
                "bitwidth": 8,
                "dtype": "int",
                "is_symmetric": "True",
                "max": 0.41237762570381165,
                "min": -0.4156247079372406,
                "offset": -128,
                "scale": 0.003247068030759692
            },
            {
                "bitwidth": 8,
                "dtype": "int",
                "is_symmetric": "True",
                "max": 0.9360763430595398,
                "min": -0.9434469938278198,
                "offset": -128,
                "scale": 0.007370679639279842
            },
            {
                "bitwidth": 8,
                "dtype": "int",
                "is_symmetric": "True",
                "max": 0.9036791324615479,
                "min": -0.910794734954834,
                "offset": -128,
                "scale": 0.0071155838668346405
            }
        ],
        "body.7.branch_3x3.weight": [
            {
                "bitwidth": 8,
                "dtype": "int",
                "is_symmetric": "True",
                "max": 1.150231122970581,
                "min": -1.1592880487442017,
                "offset": -128,
                "scale": 0.009056937880814075
            },
            {
                "bitwidth": 8,
                "dtype": "int",
                "is_symmetric": "True",
                "max": 1.057644009590149,
                "min": -1.0659719705581665,
                "offset": -128,
                "scale": 0.008327906019985676
            },
            {
                "bitwidth": 8,
                "dtype": "int",
                "is_symmetric": "True",
                "max": 0.8837125301361084,
                "min": -0.890670895576477,
                "offset": -128,
                "scale": 0.006958366371691227
            },
            {
                "bitwidth": 8,
                "dtype": "int",
                "is_symmetric": "True",
                "max": 0.9543365240097046,
                "min": -0.9618510007858276,
                "offset": -128,
                "scale": 0.007514460943639278
            },
            {
                "bitwidth": 8,
                "dtype": "int",
                "is_symmetric": "True",
                "max": 0.6428387761116028,
                "min": -0.6479005217552185,
                "offset": -128,
                "scale": 0.005061722826212645
            },
            {
                "bitwidth": 8,
                "dtype": "int",
                "is_symmetric": "True",
                "max": 0.8648634552955627,
                "min": -0.8716734051704407,
                "offset": -128,
                "scale": 0.006809948477894068
            },
            {
                "bitwidth": 8,
                "dtype": "int",
                "is_symmetric": "True",
                "max": 0.8032018542289734,
                "min": -0.809526264667511,
                "offset": -128,
                "scale": 0.00632442394271493
            },
            {
                "bitwidth": 8,
                "dtype": "int",
                "is_symmetric": "True",
                "max": 0.7340308427810669,
                "min": -0.739810585975647,
                "offset": -128,
                "scale": 0.005779770202934742
            },
            {
                "bitwidth": 8,
                "dtype": "int",
                "is_symmetric": "True",
                "max": 0.9048014283180237,
                "min": -0.9119258522987366,
                "offset": -128,
                "scale": 0.0071244207210838795
            },
            {
                "bitwidth": 8,
                "dtype": "int",
                "is_symmetric": "True",
                "max": 0.4113417863845825,
                "min": -0.41458070278167725,
                "offset": -128,
                "scale": 0.0032389117404818535
            },
            {
                "bitwidth": 8,
                "dtype": "int",
                "is_symmetric": "True",
                "max": 0.5806600451469421,
                "min": -0.5852321982383728,
                "offset": -128,
                "scale": 0.0045721265487372875
            },
            {
                "bitwidth": 8,
                "dtype": "int",
                "is_symmetric": "True",
                "max": 0.7446163296699524,
                "min": -0.7504794597625732,
                "offset": -128,
                "scale": 0.0058631207793951035
            },
            {
                "bitwidth": 8,
                "dtype": "int",
                "is_symmetric": "True",
                "max": 0.5705881118774414,
                "min": -0.575080931186676,
                "offset": -128,
                "scale": 0.0044928197748959064
            },
            {
                "bitwidth": 8,
                "dtype": "int",
                "is_symmetric": "True",
                "max": 0.9845532774925232,
                "min": -0.9923056364059448,
                "offset": -128,
                "scale": 0.007752387784421444
            },
            {
                "bitwidth": 8,
                "dtype": "int",
                "is_symmetric": "True",
                "max": 0.8725390434265137,
                "min": -0.8794094324111938,
                "offset": -128,
                "scale": 0.006870386190712452
            },
            {
                "bitwidth": 8,
                "dtype": "int",
                "is_symmetric": "True",
                "max": 0.8861708641052246,
                "min": -0.8931486010551453,
                "offset": -128,
                "scale": 0.006977723445743322
            },
            {
                "bitwidth": 8,
                "dtype": "int",
                "is_symmetric": "True",
                "max": 1.0177242755889893,
                "min": -1.0257378816604614,
                "offset": -128,
                "scale": 0.008013577200472355
            },
            {
                "bitwidth": 8,
                "dtype": "int",
                "is_symmetric": "True",
                "max": 1.0903304815292358,
                "min": -1.0989158153533936,
                "offset": -128,
                "scale": 0.008585279807448387
            },
            {
                "bitwidth": 8,
                "dtype": "int",
                "is_symmetric": "True",
                "max": 0.9728099703788757,
                "min": -0.9804698824882507,
                "offset": -128,
                "scale": 0.007659920956939459
            },
            {
                "bitwidth": 8,
                "dtype": "int",
                "is_symmetric": "True",
                "max": 0.8030394315719604,
                "min": -0.8093625903129578,
                "offset": -128,
                "scale": 0.0063231452368199825
            },
            {
                "bitwidth": 8,
                "dtype": "int",
                "is_symmetric": "True",
                "max": 0.4664393961429596,
                "min": -0.470112144947052,
                "offset": -128,
                "scale": 0.0036727511323988438
            },
            {
                "bitwidth": 8,
                "dtype": "int",
                "is_symmetric": "True",
                "max": 0.7723045945167542,
                "min": -0.7783857583999634,
                "offset": -128,
                "scale": 0.006081138737499714
            },
            {
                "bitwidth": 8,
                "dtype": "int",
                "is_symmetric": "True",
                "max": 0.8623046278953552,
                "min": -0.8690944314002991,
                "offset": -128,
                "scale": 0.0067898002453148365
            },
            {
                "bitwidth": 8,
                "dtype": "int",
                "is_symmetric": "True",
                "max": 0.979188084602356,
                "min": -0.9868982434272766,
                "offset": -128,
                "scale": 0.0077101425267755985
            },
            {
                "bitwidth": 8,
                "dtype": "int",
                "is_symmetric": "True",
                "max": 0.8312757015228271,
                "min": -0.8378211855888367,
                "offset": -128,
                "scale": 0.0065454780124127865
            },
            {
                "bitwidth": 8,
                "dtype": "int",
                "is_symmetric": "True",
                "max": 1.1385128498077393,
                "min": -1.1474775075912476,
                "offset": -128,
                "scale": 0.008964668028056622
            },
            {
                "bitwidth": 8,
                "dtype": "int",
                "is_symmetric": "True",
                "max": 0.8372602462768555,
                "min": -0.8438528180122375,
                "offset": -128,
                "scale": 0.006592600140720606
            },
            {
                "bitwidth": 8,
                "dtype": "int",
                "is_symmetric": "True",
                "max": 0.2454228550195694,
                "min": -0.24735531210899353,
                "offset": -128,
                "scale": 0.001932463375851512
            },
            {
                "bitwidth": 8,
                "dtype": "int",
                "is_symmetric": "True",
                "max": 0.4588342308998108,
                "min": -0.4624471068382263,
